// Eog_model1.cpp
#include "Eog_model1.h"

alignas(16) const unsigned char model[] = {
  0x1c, 0x00, 0x00, 0x00, 0x54, 0x46, 0x4c, 0x33, 0x14, 0x00, 0x20, 0x00,
  0x1c, 0x00, 0x18, 0x00, 0x14, 0x00, 0x10, 0x00, 0x0c, 0x00, 0x00, 0x00,
  0x08, 0x00, 0x04, 0x00, 0x14, 0x00, 0x00, 0x00, 0x1c, 0x00, 0x00, 0x00,
  0x94, 0x00, 0x00, 0x00, 0xec, 0x00, 0x00, 0x00, 0x64, 0x13, 0x00, 0x00,
  0x74, 0x13, 0x00, 0x00, 0x4c, 0x19, 0x00, 0x00, 0x03, 0x00, 0x00, 0x00,
  0x01, 0x00, 0x00, 0x00, 0x10, 0x00, 0x00, 0x00, 0x00, 0x00, 0x0a, 0x00,
  0x10, 0x00, 0x0c, 0x00, 0x08, 0x00, 0x04, 0x00, 0x0a, 0x00, 0x00, 0x00,
  0x0c, 0x00, 0x00, 0x00, 0x1c, 0x00, 0x00, 0x00, 0x38, 0x00, 0x00, 0x00,
  0x0f, 0x00, 0x00, 0x00, 0x73, 0x65, 0x72, 0x76, 0x69, 0x6e, 0x67, 0x5f,
  0x64, 0x65, 0x66, 0x61, 0x75, 0x6c, 0x74, 0x00, 0x01, 0x00, 0x00, 0x00,
  0x04, 0x00, 0x00, 0x00, 0x94, 0xff, 0xff, 0xff, 0x0a, 0x00, 0x00, 0x00,
  0x04, 0x00, 0x00, 0x00, 0x07, 0x00, 0x00, 0x00, 0x64, 0x65, 0x6e, 0x73,
  0x65, 0x5f, 0x34, 0x00, 0x01, 0x00, 0x00, 0x00, 0x04, 0x00, 0x00, 0x00,
  0x7e, 0xec, 0xff, 0xff, 0x04, 0x00, 0x00, 0x00, 0x0d, 0x00, 0x00, 0x00,
  0x64, 0x65, 0x6e, 0x73, 0x65, 0x5f, 0x32, 0x5f, 0x69, 0x6e, 0x70, 0x75,
  0x74, 0x00, 0x00, 0x00, 0x02, 0x00, 0x00, 0x00, 0x34, 0x00, 0x00, 0x00,
  0x04, 0x00, 0x00, 0x00, 0xdc, 0xff, 0xff, 0xff, 0x0d, 0x00, 0x00, 0x00,
  0x04, 0x00, 0x00, 0x00, 0x13, 0x00, 0x00, 0x00, 0x43, 0x4f, 0x4e, 0x56,
  0x45, 0x52, 0x53, 0x49, 0x4f, 0x4e, 0x5f, 0x4d, 0x45, 0x54, 0x41, 0x44,
  0x41, 0x54, 0x41, 0x00, 0x08, 0x00, 0x0c, 0x00, 0x08, 0x00, 0x04, 0x00,
  0x08, 0x00, 0x00, 0x00, 0x0c, 0x00, 0x00, 0x00, 0x04, 0x00, 0x00, 0x00,
  0x13, 0x00, 0x00, 0x00, 0x6d, 0x69, 0x6e, 0x5f, 0x72, 0x75, 0x6e, 0x74,
  0x69, 0x6d, 0x65, 0x5f, 0x76, 0x65, 0x72, 0x73, 0x69, 0x6f, 0x6e, 0x00,
  0x0e, 0x00, 0x00, 0x00, 0x74, 0x12, 0x00, 0x00, 0x6c, 0x12, 0x00, 0x00,
  0x50, 0x12, 0x00, 0x00, 0x04, 0x12, 0x00, 0x00, 0x2c, 0x11, 0x00, 0x00,
  0x34, 0x0d, 0x00, 0x00, 0x6c, 0x01, 0x00, 0x00, 0xa8, 0x00, 0x00, 0x00,
  0xa0, 0x00, 0x00, 0x00, 0x98, 0x00, 0x00, 0x00, 0x90, 0x00, 0x00, 0x00,
  0x88, 0x00, 0x00, 0x00, 0x68, 0x00, 0x00, 0x00, 0x04, 0x00, 0x00, 0x00,
  0x32, 0xed, 0xff, 0xff, 0x04, 0x00, 0x00, 0x00, 0x54, 0x00, 0x00, 0x00,
  0x0c, 0x00, 0x00, 0x00, 0x08, 0x00, 0x0e, 0x00, 0x08, 0x00, 0x04, 0x00,
  0x08, 0x00, 0x00, 0x00, 0x10, 0x00, 0x00, 0x00, 0x24, 0x00, 0x00, 0x00,
  0x00, 0x00, 0x06, 0x00, 0x08, 0x00, 0x04, 0x00, 0x06, 0x00, 0x00, 0x00,
  0x04, 0x00, 0x00, 0x00, 0x00, 0x00, 0x00, 0x00, 0x00, 0x00, 0x0a, 0x00,
  0x10, 0x00, 0x0c, 0x00, 0x08, 0x00, 0x04, 0x00, 0x0a, 0x00, 0x00, 0x00,
  0x02, 0x00, 0x00, 0x00, 0x02, 0x00, 0x00, 0x00, 0x04, 0x00, 0x00, 0x00,
  0x06, 0x00, 0x00, 0x00, 0x32, 0x2e, 0x31, 0x35, 0x2e, 0x30, 0x00, 0x00,
  0x92, 0xed, 0xff, 0xff, 0x04, 0x00, 0x00, 0x00, 0x10, 0x00, 0x00, 0x00,
  0x31, 0x2e, 0x35, 0x2e, 0x30, 0x00, 0x00, 0x00, 0x00, 0x00, 0x00, 0x00,
  0x00, 0x00, 0x00, 0x00, 0x84, 0xe8, 0xff, 0xff, 0x88, 0xe8, 0xff, 0xff,
  0x8c, 0xe8, 0xff, 0xff, 0x90, 0xe8, 0xff, 0xff, 0xbe, 0xed, 0xff, 0xff,
  0x04, 0x00, 0x00, 0x00, 0xb4, 0x00, 0x00, 0x00, 0x85, 0x9d, 0x35, 0xbe,
  0xd7, 0xa3, 0xc0, 0xbd, 0x96, 0xc4, 0x12, 0x3e, 0x55, 0x1b, 0x7f, 0xbf,
  0xdb, 0xcc, 0x82, 0x3c, 0x64, 0xd3, 0x34, 0x3f, 0x60, 0x8e, 0xdb, 0x3e,
  0x97, 0xa3, 0x74, 0xbf, 0x40, 0x43, 0x72, 0xbe, 0x46, 0x28, 0x17, 0x3d,
  0xa8, 0x17, 0x2c, 0xbe, 0xef, 0x0d, 0x56, 0x3f, 0x71, 0x0a, 0xc0, 0xbe,
  0xb0, 0x67, 0x03, 0x3f, 0xf3, 0x3d, 0x20, 0xbe, 0x0d, 0x46, 0x31, 0xbf,
  0x42, 0xcc, 0xaf, 0x3e, 0xd2, 0x57, 0x69, 0xbf, 0xfd, 0xc2, 0x97, 0xbe,
  0x83, 0xbe, 0xcf, 0x3e, 0xb1, 0x84, 0xed, 0x3e, 0xa6, 0xa3, 0xe4, 0x3e,
  0x08, 0xb4, 0x08, 0x3d, 0xab, 0x72, 0x45, 0xbf, 0x3a, 0x54, 0x18, 0xbf,
  0x10, 0x95, 0xc8, 0x3e, 0x2f, 0x6a, 0x6c, 0xbd, 0xe6, 0x1f, 0xf1, 0x3e,
  0xd1, 0xbc, 0xa0, 0xbe, 0x68, 0x7f, 0x96, 0xbf, 0x60, 0x41, 0x49, 0xbe,
  0xf6, 0x2e, 0x1a, 0x3f, 0x0a, 0xfb, 0xaf, 0x3e, 0xe3, 0xbd, 0x47, 0x3e,
  0x4c, 0x31, 0x67, 0xbf, 0x00, 0x8f, 0x45, 0xbf, 0xd2, 0xa6, 0x3a, 0xbe,
  0xfb, 0xb1, 0x3e, 0x3f, 0x38, 0xac, 0xdd, 0xbd, 0x81, 0xa7, 0xff, 0xbd,
  0xe4, 0x2c, 0xe4, 0x3c, 0xb1, 0xf2, 0x5b, 0xbf, 0x04, 0x91, 0x82, 0xbf,
  0xcd, 0x94, 0x33, 0xbf, 0x51, 0xf5, 0x70, 0x3f, 0x7e, 0xee, 0xff, 0xff,
  0x04, 0x00, 0x00, 0x00, 0xb8, 0x0b, 0x00, 0x00, 0x1c, 0xdc, 0xa0, 0xbd,
  0xed, 0x4d, 0xad, 0x3e, 0x14, 0xa9, 0x91, 0x3e, 0xe5, 0x7d, 0x77, 0xbd,
  0xaf, 0x90, 0x22, 0xbd, 0x1c, 0x98, 0x27, 0x3e, 0xea, 0xfc, 0xc7, 0x3d,
  0x28, 0xc6, 0x1e, 0xbe, 0xd0, 0x3d, 0x02, 0xbd, 0x87, 0x06, 0x3f, 0x3e,
  0x7a, 0x12, 0xad, 0x3c, 0xd8, 0xee, 0x35, 0x3e, 0x1e, 0x53, 0x2a, 0x3e,
  0xcf, 0x2b, 0x74, 0x3e, 0x1d, 0xf4, 0x1d, 0x3e, 0x02, 0x89, 0x3d, 0xbe,
  0x2a, 0xda, 0x93, 0x3d, 0xc1, 0xc0, 0xb5, 0x3e, 0x6c, 0x32, 0xf3, 0xbd,
  0xa5, 0x25, 0x18, 0x3e, 0x91, 0x88, 0x8b, 0xbe, 0x6e, 0xd5, 0x75, 0xbd,
  0x2e, 0x40, 0x03, 0x3f, 0x14, 0x9f, 0x11, 0xbe, 0xf0, 0x95, 0x23, 0xbe,
  0x2d, 0x27, 0x46, 0xbe, 0x16, 0x1b, 0x4b, 0xbd, 0x8f, 0x32, 0x08, 0x3e,
  0xdf, 0xae, 0x5c, 0xbe, 0x20, 0x3e, 0xd9, 0x3c, 0x20, 0x28, 0x3f, 0x3e,
  0xbd, 0x2d, 0xad, 0x3c, 0xe9, 0xd9, 0x28, 0x3d, 0xd4, 0x37, 0x7c, 0xbc,
  0xbe, 0x1e, 0x3a, 0xbd, 0x51, 0x9d, 0x4d, 0x3e, 0x54, 0x37, 0x72, 0xbd,
  0x63, 0xf0, 0xfe, 0x3d, 0xab, 0xc9, 0x0f, 0xbe, 0x70, 0xa2, 0xb4, 0xbd,
  0xcf, 0x64, 0x85, 0xbd, 0x39, 0xb0, 0x73, 0xbd, 0x75, 0x9b, 0x40, 0x3e,
  0x77, 0x36, 0x44, 0x3e, 0xc0, 0xc8, 0x87, 0xbd, 0x8b, 0xc1, 0xde, 0x3d,
  0xe3, 0x5b, 0xd1, 0x3e, 0x88, 0x01, 0x3d, 0x3e, 0x6e, 0x28, 0x40, 0xbe,
  0xae, 0x42, 0x2f, 0x3e, 0x08, 0xa5, 0x90, 0x3e, 0xbc, 0x27, 0x01, 0x3e,
  0xaa, 0x37, 0x1c, 0x3e, 0xac, 0x22, 0xc1, 0xbd, 0xa3, 0x0d, 0x12, 0xbe,
  0x2d, 0x5b, 0x88, 0x3e, 0x3f, 0xc0, 0x31, 0x3e, 0xa1, 0xac, 0x43, 0x3c,
  0x24, 0x0a, 0xb7, 0x3e, 0xe3, 0x92, 0x03, 0x3e, 0x6d, 0x83, 0x6b, 0xbe,
  0x21, 0xdd, 0x7f, 0x3e, 0x3c, 0x89, 0x38, 0xbe, 0xab, 0x77, 0x8a, 0x3d,
  0x65, 0xe5, 0xbc, 0x3e, 0xe7, 0xbc, 0x59, 0x3d, 0x20, 0x2e, 0x39, 0xbe,
  0xf8, 0x4f, 0x5f, 0x3e, 0x5c, 0x0f, 0x42, 0x39, 0xa0, 0xe3, 0x77, 0x3e,
  0x80, 0x30, 0x9e, 0x3e, 0x52, 0x3b, 0x54, 0x3e, 0xc6, 0x83, 0x81, 0x3d,
  0xbb, 0xe1, 0x9b, 0x3e, 0x79, 0x7b, 0x97, 0xbe, 0x9e, 0x6e, 0xb0, 0x3d,
  0xb6, 0xf2, 0x85, 0x3e, 0x70, 0xba, 0xf4, 0x3b, 0x49, 0x25, 0xb7, 0xbe,
  0x8c, 0xa2, 0x2a, 0x3d, 0xe2, 0x9e, 0x5b, 0x3e, 0x5c, 0xb8, 0x6e, 0x3e,
  0xa4, 0x85, 0xff, 0xbb, 0x0b, 0x78, 0xa0, 0xbe, 0xae, 0x5b, 0x5d, 0x3d,
  0x37, 0x5b, 0x26, 0xbe, 0x69, 0x97, 0x74, 0x3e, 0x86, 0x19, 0xa6, 0xbd,
  0x48, 0x52, 0x18, 0x3e, 0x44, 0x2c, 0xdc, 0x3e, 0x23, 0x04, 0x55, 0xbe,
  0xe3, 0x3f, 0xc4, 0x3d, 0x72, 0x01, 0xde, 0xbe, 0x31, 0x11, 0xbe, 0xbd,
  0x7f, 0x4e, 0xf9, 0xbd, 0x60, 0xd4, 0x4a, 0x3c, 0x4f, 0xb6, 0x57, 0x3d,
  0x57, 0x4a, 0x28, 0x3e, 0xe7, 0x5c, 0x7b, 0x3e, 0x87, 0xd6, 0x0a, 0x3e,
  0x76, 0x79, 0x3b, 0xbe, 0x6e, 0x89, 0x8f, 0x3e, 0x6a, 0xdd, 0x73, 0x3e,
  0x91, 0xb3, 0xc3, 0x3d, 0xee, 0xed, 0x4e, 0xbe, 0x77, 0xd1, 0xd6, 0xbe,
  0xb8, 0xeb, 0xa3, 0x3e, 0x45, 0x92, 0xc9, 0x3e, 0x88, 0xfa, 0x8f, 0xbe,
  0xca, 0x55, 0x59, 0x3e, 0x37, 0xe2, 0x18, 0x3e, 0x11, 0x3b, 0x8f, 0xbd,
  0x01, 0x1f, 0x60, 0xbd, 0xe2, 0x1e, 0x08, 0x3f, 0x19, 0x1b, 0xe6, 0x3d,
  0x0b, 0xf9, 0x8b, 0xbe, 0x95, 0x0f, 0x31, 0xbe, 0x13, 0xaa, 0x8c, 0x3e,
  0x3f, 0x44, 0x03, 0x3d, 0x1d, 0x59, 0x99, 0xbd, 0x5e, 0xe2, 0x66, 0x3c,
  0x3a, 0x29, 0xb6, 0x3d, 0x93, 0x61, 0xd5, 0x3e, 0x40, 0x74, 0x36, 0xbe,
  0xd2, 0x3e, 0x19, 0xbe, 0x50, 0x75, 0xa5, 0x3d, 0x0d, 0x8c, 0x87, 0x3e,
  0x62, 0x24, 0x84, 0x3e, 0xf5, 0x20, 0x87, 0x3b, 0x7a, 0x40, 0xde, 0x3e,
  0x67, 0xdf, 0xa4, 0x3e, 0xec, 0xce, 0x59, 0xbd, 0x71, 0x98, 0xd6, 0xbe,
  0x22, 0xaf, 0x89, 0xbe, 0xcd, 0xd7, 0x22, 0xbd, 0x75, 0x8b, 0x6a, 0xbd,
  0x9b, 0xb5, 0x8e, 0xbb, 0x8b, 0xab, 0x3a, 0x3d, 0xab, 0xe3, 0xb9, 0x3e,
  0xe0, 0x72, 0x89, 0x3e, 0x02, 0xae, 0x26, 0x3d, 0x13, 0x0b, 0xa4, 0xbd,
  0x46, 0x30, 0x08, 0x3d, 0x6d, 0xae, 0x09, 0x3e, 0xde, 0x6b, 0xd0, 0xbe,
  0xb6, 0xe7, 0x02, 0x3f, 0x93, 0xc4, 0x0a, 0x3f, 0xc6, 0x06, 0x0c, 0x3e,
  0x7a, 0x11, 0xf8, 0x3d, 0x28, 0x5c, 0x70, 0x3e, 0xf2, 0x31, 0x29, 0x3f,
  0xd5, 0x6f, 0xe6, 0x3d, 0xd1, 0xc3, 0xd3, 0xbd, 0xb3, 0x65, 0x35, 0xbe,
  0xd2, 0xd1, 0x37, 0xbe, 0xf6, 0x0a, 0x7c, 0x3e, 0xc8, 0xce, 0x2f, 0x3e,
  0x96, 0x6c, 0x4c, 0xbe, 0x10, 0x81, 0x19, 0x3f, 0x42, 0x2f, 0x61, 0xbe,
  0xad, 0xa3, 0x30, 0xbe, 0xf5, 0x5c, 0x34, 0x3e, 0x4a, 0xb3, 0xd6, 0x3d,
  0xae, 0x17, 0x28, 0xbe, 0xb2, 0x84, 0x01, 0x3f, 0xed, 0x04, 0x65, 0xbe,
  0x2a, 0xfe, 0xab, 0xbe, 0xe7, 0xae, 0x4f, 0x3d, 0x58, 0xa6, 0x3e, 0x3e,
  0x97, 0x31, 0x8a, 0x3e, 0x5f, 0x69, 0x01, 0x3f, 0x8b, 0xff, 0x85, 0x3e,
  0x1e, 0xdf, 0x12, 0xbe, 0x74, 0x5a, 0x56, 0x3e, 0x55, 0x3e, 0x0f, 0xbe,
  0xdf, 0xa5, 0x70, 0xbd, 0xf3, 0x17, 0xd0, 0x3e, 0x41, 0x53, 0xc3, 0x3e,
  0x4c, 0x2f, 0xb4, 0xbe, 0x04, 0x6c, 0xa7, 0x3e, 0x99, 0xb2, 0x98, 0x3e,
  0x4a, 0xbf, 0x85, 0xbc, 0xa3, 0xc8, 0xfc, 0x3c, 0x83, 0xbb, 0x03, 0x3e,
  0x59, 0xe8, 0xf0, 0x3e, 0x01, 0x98, 0x71, 0xbe, 0x53, 0x04, 0xdf, 0x3c,
  0x64, 0xac, 0x1e, 0xbe, 0x83, 0xe6, 0x8c, 0xbc, 0x37, 0xf5, 0xa6, 0x3e,
  0xc8, 0xe2, 0x47, 0xbe, 0xc1, 0xeb, 0x90, 0x3e, 0x3f, 0x02, 0x12, 0xbe,
  0xf9, 0xeb, 0x96, 0x3e, 0x67, 0x5f, 0x80, 0xbe, 0x48, 0x05, 0xfb, 0xbd,
  0x44, 0xaa, 0x12, 0x3e, 0x23, 0xd1, 0x85, 0xbd, 0x2c, 0x42, 0xfa, 0x3e,
  0x38, 0xd7, 0x55, 0xbd, 0x55, 0x0a, 0x08, 0xbe, 0xa1, 0x40, 0xec, 0xbc,
  0x4e, 0xf1, 0x43, 0x3e, 0xb8, 0x71, 0x5c, 0xbe, 0x53, 0xe6, 0x25, 0x3e,
  0xb2, 0xb0, 0x05, 0x3f, 0x24, 0x4e, 0xae, 0xbe, 0xe0, 0x3f, 0x3e, 0xbe,
  0xfe, 0x12, 0xa3, 0xbc, 0xc3, 0x33, 0x92, 0x3e, 0x78, 0xde, 0x9c, 0x3d,
  0x63, 0xd4, 0x8c, 0xbc, 0xf8, 0xf6, 0xa9, 0x3e, 0xfa, 0xf8, 0x96, 0x3e,
  0x26, 0x7c, 0xbf, 0xba, 0xb2, 0xd1, 0xa0, 0xbd, 0x9b, 0x83, 0x9d, 0xbe,
  0xb6, 0x62, 0x37, 0xbe, 0xe1, 0x77, 0x6e, 0xbd, 0xa0, 0xb5, 0xad, 0x3e,
  0x37, 0x51, 0x8f, 0xbe, 0x06, 0x8f, 0x48, 0xbe, 0x98, 0x4d, 0x8e, 0xbb,
  0xaf, 0xe3, 0x53, 0xbe, 0xb9, 0xea, 0x97, 0xbd, 0x65, 0x0e, 0x52, 0xbe,
  0x1c, 0x54, 0x57, 0xbe, 0x88, 0x23, 0x6f, 0x3e, 0xe1, 0x63, 0xa7, 0x3d,
  0x33, 0xb2, 0x81, 0xbe, 0xe3, 0x6d, 0xb8, 0xbe, 0xa6, 0x8f, 0x00, 0x3e,
  0xe9, 0x7a, 0xb2, 0x3e, 0x25, 0x76, 0x15, 0x3f, 0xfb, 0x6c, 0xb5, 0xbe,
  0x85, 0x6a, 0xca, 0x3e, 0xbf, 0x62, 0x5c, 0xbd, 0x55, 0x98, 0x83, 0x3e,
  0x58, 0x2e, 0x40, 0x3e, 0x11, 0xa4, 0xb9, 0x3e, 0x09, 0x13, 0xe3, 0x3d,
  0xb8, 0xd1, 0x00, 0xbe, 0xb5, 0x4f, 0xec, 0xbd, 0x6e, 0x91, 0x91, 0xbe,
  0x3b, 0x9c, 0x1c, 0x3f, 0xf0, 0xb8, 0x19, 0xbe, 0xef, 0xf3, 0xac, 0xbe,
  0x60, 0xc7, 0xad, 0xbd, 0x9d, 0x70, 0x73, 0x3e, 0x33, 0x3d, 0x27, 0x3d,
  0x92, 0xfa, 0xd2, 0xbd, 0xda, 0xc5, 0xe7, 0xbe, 0xd6, 0x1c, 0xae, 0xbe,
  0xa0, 0x08, 0x33, 0x3d, 0x10, 0x1f, 0x5b, 0x3e, 0x02, 0x7d, 0x3f, 0x3c,
  0x0e, 0x02, 0x06, 0x3e, 0xb2, 0x0a, 0xd3, 0x3e, 0x1f, 0x83, 0x74, 0xbb,
  0xbc, 0xb0, 0x83, 0xbe, 0x86, 0x53, 0xb2, 0xbd, 0x84, 0xbe, 0xd2, 0x3d,
  0x21, 0x6d, 0xf1, 0x3d, 0x2f, 0xea, 0x2c, 0xbe, 0x0c, 0x6a, 0x87, 0xbe,
  0x6e, 0xd0, 0x05, 0xbe, 0xbe, 0xc8, 0xa0, 0x3e, 0xa5, 0x92, 0xce, 0xbe,
  0x3e, 0x4d, 0xbc, 0xbd, 0x28, 0xb1, 0x21, 0xbd, 0x53, 0x49, 0x88, 0x3d,
  0x48, 0x15, 0x85, 0x3d, 0x81, 0xa8, 0x6e, 0xbe, 0x1e, 0x75, 0xf9, 0xbd,
  0x91, 0xa3, 0x07, 0x3e, 0x59, 0x98, 0xa0, 0x3e, 0x9a, 0xbe, 0xf9, 0xbd,
  0xb3, 0xe6, 0x1c, 0x3d, 0x5d, 0x2d, 0x92, 0x3e, 0x54, 0x40, 0x86, 0x3e,
  0xc1, 0x9e, 0x57, 0x3d, 0x02, 0xd5, 0x3e, 0x3e, 0x2b, 0xb7, 0x9b, 0xbd,
  0x49, 0xa4, 0x7a, 0x3c, 0xc8, 0x11, 0x28, 0xbd, 0x89, 0xc8, 0x56, 0xbe,
  0xbe, 0xae, 0x96, 0xbd, 0xd2, 0xe4, 0xc0, 0x3e, 0xb7, 0x66, 0x86, 0xbe,
  0xdd, 0x7d, 0xb4, 0xbe, 0x57, 0xf7, 0xf1, 0x3d, 0xa9, 0x6a, 0x32, 0x3e,
  0x14, 0x6d, 0x78, 0xbe, 0x7a, 0x9b, 0x39, 0xbd, 0xf4, 0xc5, 0x34, 0x3d,
  0x96, 0x0a, 0x5e, 0xbd, 0xc2, 0xf4, 0x2a, 0xbd, 0x36, 0xa0, 0x16, 0x3e,
  0xcc, 0xe3, 0x93, 0xbe, 0xe5, 0xc6, 0xa9, 0x3e, 0x4d, 0x39, 0xed, 0xbd,
  0x87, 0xe4, 0x9f, 0xbe, 0x08, 0xff, 0x9e, 0xbe, 0x7f, 0xd5, 0xc7, 0x3d,
  0x28, 0x44, 0x4e, 0xbd, 0xf1, 0xae, 0xa7, 0xbe, 0x88, 0x68, 0x79, 0xbe,
  0x1b, 0x71, 0x8b, 0xbe, 0x90, 0xa7, 0x31, 0x3e, 0x11, 0x9e, 0x3d, 0x3e,
  0x84, 0x8c, 0x63, 0xbd, 0x05, 0x9d, 0x59, 0xbd, 0x29, 0x3f, 0x84, 0xbe,
  0xfb, 0xf7, 0xe2, 0xbb, 0x5d, 0x0f, 0x6e, 0xbd, 0xeb, 0x42, 0x01, 0xbe,
  0x38, 0xdb, 0x7f, 0xbe, 0xf2, 0xe1, 0xea, 0xbd, 0x37, 0x6d, 0x57, 0xbe,
  0x85, 0xfd, 0x18, 0xbd, 0x15, 0xb9, 0xbb, 0x3c, 0x90, 0x7a, 0x8a, 0xbe,
  0x5e, 0xc2, 0x90, 0xbe, 0x7e, 0x01, 0x3c, 0x3e, 0x9d, 0x43, 0x24, 0xbe,
  0x13, 0xb4, 0x18, 0xbc, 0x0f, 0x47, 0x88, 0x3e, 0x0b, 0xbb, 0x1c, 0x3e,
  0xf5, 0x30, 0x54, 0x3e, 0xac, 0xed, 0x9b, 0x3d, 0x3d, 0xdf, 0x83, 0xbd,
  0xf6, 0xf0, 0x40, 0xbe, 0x3b, 0x65, 0x86, 0x3e, 0x6a, 0x15, 0x9f, 0xbc,
  0x6a, 0x38, 0x7d, 0x3e, 0xb6, 0xdf, 0x68, 0x3e, 0xe4, 0x5c, 0x9c, 0xbd,
  0x94, 0x90, 0xa1, 0xbe, 0x9f, 0x7a, 0x8b, 0x3e, 0x06, 0x5b, 0x94, 0xbd,
  0x6c, 0xe6, 0x75, 0xbe, 0xf9, 0x72, 0x31, 0x3c, 0x24, 0x60, 0x8e, 0x3e,
  0xac, 0x37, 0xa1, 0xbc, 0x32, 0xc9, 0x2f, 0xbe, 0x36, 0xc0, 0x6e, 0xbe,
  0xef, 0xeb, 0x1b, 0x3e, 0x92, 0x5d, 0x6c, 0xbe, 0x51, 0x2c, 0x86, 0x3e,
  0x80, 0x17, 0x18, 0xbb, 0xb2, 0x6e, 0x19, 0x3f, 0x08, 0x4a, 0x0d, 0x3e,
  0x58, 0x79, 0x56, 0x3d, 0x58, 0x26, 0x6b, 0xbe, 0x85, 0x93, 0x4c, 0xbe,
  0x5f, 0x06, 0xf4, 0x3d, 0x64, 0x68, 0xe7, 0x3d, 0x05, 0x6a, 0xae, 0xbe,
  0x73, 0xe1, 0xe0, 0x3e, 0x9d, 0xac, 0xae, 0x3c, 0xb6, 0x76, 0x19, 0xbe,
  0xec, 0x68, 0x67, 0xbe, 0x95, 0xe7, 0xf3, 0x3a, 0xfd, 0xeb, 0xa5, 0xbd,
  0x6d, 0xe5, 0xcd, 0x3e, 0xb0, 0x04, 0x73, 0x3e, 0xe8, 0x18, 0x71, 0xbd,
  0x25, 0xba, 0x1a, 0xbc, 0x9e, 0xdc, 0x43, 0x3e, 0x70, 0xbf, 0x55, 0x3e,
  0xd2, 0xca, 0x5c, 0x3b, 0x57, 0xe6, 0x76, 0x3e, 0x42, 0x96, 0xc5, 0xbe,
  0x45, 0x94, 0xe2, 0x3e, 0x27, 0x11, 0x92, 0xbe, 0xa5, 0x86, 0x98, 0x3d,
  0xe4, 0xe0, 0x0b, 0x3f, 0xcd, 0xfa, 0x9e, 0xbe, 0x7c, 0x67, 0x4a, 0xbd,
  0xee, 0x45, 0x04, 0xbe, 0x96, 0xdf, 0x73, 0x3e, 0x55, 0x55, 0xcc, 0xbd,
  0x26, 0xc6, 0x0e, 0x3d, 0x51, 0x35, 0xea, 0x3b, 0xdf, 0xa9, 0x86, 0xbb,
  0x1e, 0xe2, 0x08, 0xbe, 0x5c, 0xc8, 0xa3, 0x3d, 0x13, 0xe3, 0x6d, 0x3d,
  0xda, 0x21, 0xa9, 0x3e, 0xf5, 0x5b, 0x00, 0x3f, 0x91, 0x31, 0xa8, 0xbe,
  0xe5, 0xf5, 0x8f, 0x3e, 0x97, 0x73, 0xa8, 0xbd, 0xdd, 0x59, 0xd3, 0x3e,
  0x1b, 0xba, 0xad, 0xbe, 0xb4, 0xf5, 0xef, 0xbc, 0x13, 0x23, 0x0e, 0x3f,
  0x6d, 0xa5, 0xd0, 0x3d, 0x41, 0xa9, 0xd4, 0x3e, 0xb2, 0x02, 0x27, 0x3d,
  0x67, 0x94, 0xe9, 0x3d, 0xb3, 0x1a, 0xbb, 0x3e, 0xe4, 0x2c, 0xef, 0x3d,
  0x9b, 0x1b, 0x8a, 0xbe, 0xaf, 0xba, 0x47, 0xbe, 0x80, 0x12, 0x72, 0xbe,
  0x6c, 0x2b, 0xb0, 0x3d, 0xe9, 0x82, 0x84, 0xbc, 0x13, 0x19, 0x09, 0x3e,
  0x57, 0x7d, 0x8c, 0xbc, 0x6a, 0xd6, 0x26, 0xbe, 0x03, 0xf9, 0x71, 0xbe,
  0x60, 0xd1, 0x6b, 0x3e, 0xbe, 0x6b, 0x0f, 0x3f, 0x3a, 0x9b, 0xc6, 0x3e,
  0x4b, 0x1a, 0x96, 0xbe, 0xe9, 0xc8, 0xb0, 0xbe, 0xa1, 0xf1, 0x8d, 0x3d,
  0x62, 0xeb, 0x5c, 0xbe, 0x0e, 0xb2, 0xdb, 0xbd, 0x95, 0xc6, 0xf4, 0xbc,
  0xef, 0x61, 0xe6, 0xbd, 0x8b, 0x2c, 0xd5, 0x3e, 0xac, 0xe9, 0x69, 0x3d,
  0xc6, 0xf6, 0x60, 0xbe, 0x53, 0xbe, 0x8d, 0x3c, 0xc2, 0x5c, 0xf8, 0x3c,
  0xc3, 0x21, 0xa4, 0x3c, 0xf2, 0x7c, 0x6d, 0x3d, 0x71, 0x9d, 0xd0, 0x3d,
  0x9e, 0x06, 0x8f, 0x3e, 0x60, 0x62, 0xf3, 0xbc, 0xd6, 0xbd, 0x45, 0x3e,
  0xcd, 0x8b, 0xbf, 0x3d, 0x21, 0xac, 0xa4, 0x3d, 0x27, 0x63, 0x8a, 0x3d,
  0x6e, 0xfd, 0x26, 0xbe, 0x00, 0x46, 0xf6, 0x3c, 0x01, 0xf6, 0xaa, 0x3e,
  0x20, 0x71, 0x43, 0x3e, 0x94, 0xa4, 0x56, 0xbe, 0xeb, 0xcd, 0x50, 0x3e,
  0x57, 0x45, 0x76, 0x3e, 0x6e, 0xfc, 0xc3, 0x3e, 0xa2, 0xc4, 0x1f, 0xbc,
  0xd6, 0xf4, 0x0f, 0x3f, 0x7c, 0x6d, 0x98, 0xbd, 0x33, 0xa5, 0x1e, 0x3e,
  0x67, 0xe1, 0x7f, 0x3c, 0xb0, 0x86, 0xba, 0x3e, 0xa1, 0x50, 0x65, 0x3e,
  0x99, 0xf6, 0x64, 0xbd, 0x36, 0xf2, 0xa6, 0xbe, 0xba, 0xba, 0x50, 0xbe,
  0x80, 0x27, 0xb0, 0xbe, 0xfd, 0x2e, 0x6b, 0x3e, 0x93, 0x03, 0x9a, 0xbe,
  0x4c, 0x0b, 0x44, 0x3e, 0x42, 0xae, 0xf7, 0xbc, 0xd1, 0xe7, 0x9b, 0x3e,
  0x71, 0xd8, 0xbb, 0xbc, 0x27, 0x21, 0xa5, 0xbe, 0x04, 0xc1, 0x29, 0xbe,
  0xb6, 0xec, 0x76, 0x3e, 0x76, 0x50, 0x56, 0x3e, 0x63, 0xc4, 0x78, 0x3e,
  0x26, 0xc2, 0x8c, 0x3e, 0xb9, 0x49, 0x21, 0x3e, 0x6b, 0x68, 0x54, 0x3d,
  0x10, 0x3e, 0x2f, 0xbe, 0x00, 0xd1, 0x2a, 0x3d, 0xd1, 0x8b, 0xe6, 0xbd,
  0xa4, 0xa2, 0x9e, 0x3c, 0xdc, 0x44, 0xb8, 0xbe, 0xe7, 0x36, 0xba, 0xbd,
  0x98, 0x52, 0x3c, 0x3e, 0xf9, 0x9b, 0x75, 0xbe, 0x4e, 0x54, 0x8d, 0x3b,
  0x7c, 0xf8, 0xcb, 0xbd, 0xea, 0x3b, 0x82, 0xbe, 0xe2, 0x4d, 0x28, 0xbe,
  0x96, 0x39, 0xae, 0x3d, 0xe6, 0x9f, 0x10, 0xbe, 0x4f, 0x7b, 0x17, 0x3e,
  0x8d, 0x7d, 0x38, 0x3e, 0xd9, 0x49, 0x27, 0x3d, 0xa2, 0x21, 0x98, 0xbc,
  0xd7, 0xa7, 0x17, 0x3d, 0x8f, 0xb1, 0xd4, 0xbd, 0x92, 0x87, 0x12, 0xbd,
  0x80, 0x02, 0x66, 0xbe, 0x0c, 0x05, 0x8d, 0xbe, 0x2b, 0x06, 0xf9, 0xbd,
  0x4e, 0xdb, 0xba, 0xbd, 0xca, 0x53, 0x77, 0x3e, 0xfe, 0x62, 0x82, 0x3e,
  0x64, 0xeb, 0x7d, 0xbe, 0x03, 0x1d, 0x1a, 0xbe, 0xc9, 0xbb, 0xf9, 0x3d,
  0xc9, 0x4c, 0x08, 0xbe, 0x91, 0x0a, 0x76, 0xbd, 0x48, 0xd4, 0x98, 0x3e,
  0x62, 0x1e, 0x41, 0xbe, 0x4b, 0x2c, 0xd3, 0xbd, 0x1b, 0x77, 0x10, 0x3d,
  0x5d, 0x6f, 0xbe, 0xbc, 0xe4, 0xdb, 0xbe, 0x3e, 0xac, 0x04, 0x8e, 0xbd,
  0xa5, 0xf4, 0xc0, 0xbd, 0xc8, 0xf3, 0x98, 0xbe, 0x2a, 0x88, 0x65, 0x3e,
  0x1f, 0x86, 0x8f, 0x3e, 0xdc, 0x6c, 0x03, 0xbe, 0x39, 0x22, 0x9f, 0x3e,
  0x91, 0xd2, 0x87, 0xbd, 0xa2, 0x98, 0x65, 0x3e, 0xe0, 0xb3, 0xb9, 0x3e,
  0xbb, 0x5a, 0x3c, 0xbd, 0xc5, 0xee, 0x84, 0xbd, 0x1c, 0xcf, 0x81, 0x3d,
  0x9c, 0xe9, 0x1c, 0xbe, 0xd2, 0x1b, 0x85, 0x3e, 0x86, 0xdc, 0xac, 0xbd,
  0x19, 0xd4, 0xfc, 0x3e, 0xdc, 0x49, 0xe3, 0xbd, 0x12, 0x11, 0xb2, 0x3e,
  0x19, 0xdf, 0xd6, 0xbd, 0xc2, 0x4c, 0xe4, 0xbd, 0x67, 0x8e, 0x6d, 0x3d,
  0xc3, 0x08, 0x55, 0x3d, 0x8a, 0xfb, 0x60, 0xbd, 0x00, 0x3b, 0xc7, 0x3e,
  0xf8, 0x87, 0xcc, 0xbd, 0xb4, 0x7d, 0x43, 0xbd, 0x3d, 0x2b, 0xa4, 0xbe,
  0xff, 0x59, 0x30, 0xbd, 0xfa, 0x85, 0xb1, 0x3e, 0x99, 0xce, 0xdb, 0x3d,
  0x7a, 0x58, 0x54, 0xbe, 0x95, 0x90, 0xad, 0xbd, 0x45, 0x6d, 0x2f, 0x3e,
  0xc0, 0xb2, 0xdc, 0x3d, 0x56, 0xd3, 0x13, 0x3d, 0x39, 0x99, 0xff, 0xbc,
  0x83, 0x47, 0xcb, 0xbd, 0x2a, 0x78, 0x0f, 0xbe, 0xb0, 0x5b, 0x97, 0x3d,
  0x1e, 0xc2, 0x0e, 0x3e, 0xae, 0xfe, 0x53, 0x3d, 0xeb, 0xda, 0x03, 0x3c,
  0x40, 0x74, 0xcb, 0xbe, 0x3b, 0xb3, 0xd1, 0x3d, 0x01, 0x9f, 0x77, 0x3e,
  0xd2, 0xb5, 0x14, 0x3e, 0x06, 0x19, 0x18, 0x3e, 0x0c, 0x23, 0x91, 0x3e,
  0x6a, 0xe4, 0x8f, 0x3e, 0x18, 0xd8, 0x9c, 0xbe, 0xe3, 0x5f, 0x7e, 0xbe,
  0xb8, 0x95, 0x9f, 0x3e, 0xf6, 0x78, 0xb6, 0x3e, 0x5d, 0x64, 0xd9, 0xbe,
  0xe2, 0xe6, 0xba, 0x3e, 0x6e, 0x37, 0xb5, 0x3e, 0xa6, 0xcf, 0xa8, 0xbe,
  0x78, 0x58, 0xae, 0xbe, 0x99, 0x20, 0xa4, 0xbd, 0xfc, 0x87, 0x4f, 0x3e,
  0x7f, 0x54, 0x33, 0x3c, 0x4b, 0x17, 0xa0, 0xbe, 0x81, 0xdc, 0xcf, 0x3d,
  0x98, 0x17, 0x39, 0x3e, 0xa1, 0xe0, 0x8d, 0x3e, 0x2e, 0x24, 0xce, 0xbe,
  0xe2, 0x77, 0x89, 0x3e, 0x8b, 0xdb, 0x61, 0x3e, 0xb4, 0x26, 0xd7, 0xbe,
  0xbd, 0x6c, 0x8e, 0x3d, 0x14, 0x9b, 0xee, 0x3b, 0xc4, 0x9a, 0xd4, 0xbe,
  0x9c, 0x00, 0xa8, 0xbe, 0xda, 0x62, 0x67, 0x3e, 0x6c, 0x81, 0xa4, 0x3e,
  0x77, 0xff, 0xbe, 0x3d, 0x48, 0x94, 0xa8, 0xbe, 0x9a, 0x02, 0x94, 0x3b,
  0xe5, 0x29, 0x8c, 0xbe, 0xcd, 0xd5, 0xbf, 0x3d, 0x90, 0xdd, 0xae, 0x3e,
  0x7c, 0xf1, 0xed, 0xbd, 0x42, 0xec, 0x60, 0x3e, 0xee, 0x3b, 0x2e, 0xbe,
  0x1e, 0xd5, 0xdf, 0x3e, 0x59, 0xf7, 0x2e, 0xbe, 0x06, 0xd6, 0x8f, 0x3e,
  0x34, 0x59, 0x80, 0x3e, 0xe3, 0x62, 0x9a, 0xbe, 0x9d, 0x9e, 0x57, 0x3e,
  0x2f, 0xf2, 0x24, 0x3e, 0x88, 0xe9, 0xbe, 0xbe, 0x91, 0x91, 0x5f, 0x3d,
  0x73, 0xf8, 0x4f, 0x3d, 0x42, 0x8e, 0x6e, 0xbe, 0xc1, 0x7f, 0xdb, 0xbd,
  0xb1, 0xb8, 0x91, 0x3e, 0xf2, 0x50, 0x14, 0x3f, 0xfa, 0x60, 0xa2, 0x3e,
  0x21, 0x79, 0x0d, 0xbd, 0x70, 0x8a, 0x22, 0x3e, 0xb3, 0x9e, 0x51, 0x3e,
  0xce, 0x61, 0x43, 0xbe, 0x14, 0xfe, 0x63, 0x3d, 0x88, 0x3f, 0xe2, 0x3d,
  0x18, 0xf2, 0x3a, 0xbd, 0xec, 0xa2, 0x82, 0xbe, 0x28, 0x7f, 0x9b, 0x3c,
  0xa4, 0x4e, 0x3c, 0x3e, 0x4c, 0x63, 0xaa, 0xbe, 0x59, 0xc9, 0x27, 0xbe,
  0xdb, 0x28, 0xca, 0x3e, 0x3b, 0x54, 0x95, 0x3e, 0x96, 0x9b, 0xd7, 0x3d,
  0x25, 0x87, 0xb5, 0x3d, 0x51, 0x91, 0xf5, 0xbb, 0x01, 0x2d, 0x88, 0xbb,
  0x43, 0x66, 0x89, 0x3e, 0x98, 0x04, 0xc0, 0xbe, 0x24, 0x45, 0x99, 0x3d,
  0xed, 0x78, 0x48, 0x3e, 0x95, 0x07, 0xb4, 0x3d, 0xb5, 0xa4, 0xba, 0xbe,
  0xfd, 0x16, 0x0e, 0x3f, 0x6b, 0xcb, 0xc8, 0x3e, 0xe6, 0x37, 0x6e, 0x3e,
  0xcb, 0x2a, 0xb2, 0x3b, 0xe9, 0x1e, 0x21, 0x3e, 0xa0, 0xd9, 0xea, 0xbd,
  0xa2, 0xf5, 0xb0, 0x3e, 0x1b, 0xe7, 0x42, 0xbd, 0x43, 0xc2, 0xbf, 0x3e,
  0x72, 0x41, 0x05, 0x3f, 0x46, 0xe2, 0x95, 0xbd, 0xa4, 0x09, 0x7f, 0xbe,
  0x68, 0x3a, 0x7d, 0xbd, 0x89, 0x24, 0x9e, 0x3e, 0x68, 0x74, 0x47, 0x3d,
  0x85, 0xd9, 0xd4, 0xbd, 0x85, 0xe2, 0x24, 0x3b, 0xf7, 0xf7, 0x48, 0xbe,
  0x3a, 0x65, 0x1f, 0x3e, 0x6a, 0x7c, 0x87, 0xbe, 0x9f, 0xb5, 0xa4, 0xbd,
  0x95, 0xe8, 0xa2, 0x3e, 0x1e, 0xf9, 0x8c, 0x3e, 0xdc, 0x0b, 0xc7, 0x3e,
  0x2e, 0x75, 0xb2, 0xbd, 0xff, 0xee, 0x49, 0xbe, 0x9e, 0xdf, 0xe3, 0x3e,
  0xf9, 0x3e, 0x10, 0xbe, 0x43, 0xe9, 0xc6, 0x3e, 0x2f, 0x7e, 0x7c, 0xbc,
  0x2a, 0xfd, 0xf2, 0xbc, 0xf3, 0x7e, 0x91, 0x3d, 0xd6, 0x95, 0x6b, 0x3d,
  0x12, 0x86, 0x02, 0x3e, 0x11, 0xb5, 0xd0, 0x3d, 0x5e, 0xad, 0xf0, 0xbd,
  0xe5, 0x35, 0x9b, 0xbd, 0xf8, 0xfa, 0x15, 0x3e, 0xf2, 0xbb, 0x5a, 0x3d,
  0x91, 0x7d, 0x46, 0xbe, 0x35, 0xa1, 0xb6, 0x3d, 0x82, 0xc2, 0xe0, 0x3e,
  0x6d, 0xa8, 0xcd, 0xbe, 0x76, 0xa0, 0x32, 0x3e, 0xd0, 0xd9, 0x0f, 0x3e,
  0x84, 0x48, 0xb0, 0x3d, 0x26, 0xd2, 0x94, 0x3d, 0x4b, 0xf4, 0x6b, 0x3e,
  0x4c, 0x6a, 0x8e, 0xbc, 0x2d, 0xc4, 0xa6, 0xbe, 0xe3, 0xa0, 0x9e, 0x3e,
  0x6a, 0xaf, 0xa2, 0x3e, 0x2b, 0x8b, 0x03, 0xbe, 0xa4, 0xd8, 0x0b, 0xbe,
  0x47, 0x0c, 0x5e, 0x3e, 0xd8, 0xce, 0x09, 0x3e, 0x5f, 0x04, 0xc8, 0x3e,
  0x3e, 0x6f, 0x9e, 0x3d, 0xcc, 0x60, 0xbc, 0xbe, 0xf3, 0xd6, 0x82, 0x3e,
  0xd5, 0x0e, 0x6e, 0x3e, 0x64, 0x21, 0xd4, 0x3e, 0xaa, 0xa8, 0x86, 0x3d,
  0x8b, 0xc2, 0x7b, 0x3e, 0x66, 0x90, 0x16, 0xbe, 0x23, 0x22, 0xca, 0xbe,
  0xd4, 0x41, 0x6e, 0xbe, 0xb3, 0xb5, 0x96, 0x3c, 0x56, 0xb7, 0x1e, 0xbe,
  0x20, 0xf3, 0xe4, 0x3e, 0xe7, 0xe4, 0x2c, 0x3e, 0x7d, 0x06, 0x28, 0xbe,
  0x7c, 0x0a, 0xa3, 0x3d, 0xee, 0xdf, 0xb5, 0xbe, 0x6e, 0xfc, 0x9a, 0xbe,
  0xe1, 0xb7, 0x8a, 0x3e, 0xdb, 0x11, 0x96, 0xbc, 0x4c, 0x9c, 0x39, 0xbe,
  0x2d, 0x09, 0x42, 0xbe, 0x2b, 0x10, 0xc6, 0x3d, 0x6d, 0xc7, 0xc4, 0xbc,
  0x5d, 0x57, 0x4a, 0xbe, 0xcb, 0x2c, 0x8f, 0x3e, 0x40, 0x2c, 0xc2, 0x3e,
  0x6f, 0x35, 0x83, 0xbc, 0xc7, 0xc0, 0xb1, 0xbe, 0x26, 0xf1, 0x15, 0x3d,
  0x41, 0x8f, 0xc3, 0x3e, 0x50, 0x26, 0x3f, 0xbe, 0x3a, 0xec, 0x8e, 0x3e,
  0x82, 0x2d, 0x10, 0x3e, 0x15, 0xd4, 0x2c, 0xbc, 0xcb, 0xa1, 0x58, 0xbc,
  0xb0, 0xfc, 0xb0, 0xbd, 0x8b, 0xf7, 0xac, 0xbe, 0x5b, 0x01, 0x10, 0x3f,
  0x7c, 0x01, 0x8c, 0xbd, 0xd7, 0x41, 0xa1, 0xbe, 0x18, 0x41, 0xca, 0x3e,
  0x5a, 0xdf, 0x00, 0x3f, 0xe9, 0x9a, 0x84, 0xbe, 0xc5, 0x73, 0xb8, 0xbe,
  0x4b, 0x65, 0x51, 0xbe, 0x33, 0xf5, 0x00, 0x3f, 0xd5, 0x3e, 0x67, 0xbe,
  0x3a, 0x0a, 0x98, 0x3e, 0xf5, 0xa3, 0x7d, 0xbe, 0x30, 0xb4, 0xd9, 0x3e,
  0xef, 0x7c, 0xd9, 0x3d, 0xe9, 0xfb, 0x39, 0x3c, 0xa8, 0x60, 0xd9, 0x3e,
  0x2c, 0xb7, 0x49, 0xbe, 0xf9, 0xbb, 0x51, 0x3e, 0x48, 0x12, 0xce, 0xbe,
  0x3c, 0xbc, 0xee, 0x3e, 0xef, 0x60, 0xfb, 0x3e, 0x3a, 0xa1, 0x8d, 0x3e,
  0xdd, 0x20, 0xe5, 0x3c, 0x23, 0xd0, 0x47, 0x3c, 0x42, 0xfa, 0xff, 0xff,
  0x04, 0x00, 0x00, 0x00, 0xe8, 0x03, 0x00, 0x00, 0xd1, 0xf1, 0x37, 0x3e,
  0x60, 0x26, 0x5a, 0xbe, 0x09, 0x62, 0x2f, 0xbe, 0x8b, 0x73, 0xbc, 0x3e,
  0x57, 0x7e, 0xa0, 0x3e, 0xe3, 0x4b, 0x1b, 0xbe, 0x0a, 0x59, 0x0a, 0x3e,
  0x90, 0x37, 0xef, 0x3d, 0xe1, 0xd5, 0x93, 0xbe, 0xc7, 0x36, 0xf6, 0xbd,
  0x6e, 0x45, 0x22, 0xbe, 0x29, 0xe3, 0x1c, 0xbe, 0x3c, 0x9b, 0xc8, 0x3e,
  0xcb, 0xb6, 0x0b, 0xbf, 0x5f, 0x1a, 0xb9, 0xbc, 0xae, 0x5e, 0xc4, 0xbe,
  0x3c, 0x7e, 0x91, 0xbe, 0x5b, 0x3d, 0xc0, 0x3e, 0xd0, 0xd9, 0xd0, 0xbc,
  0x1c, 0x87, 0x3a, 0xbe, 0xc5, 0x1a, 0x8e, 0xbe, 0x8c, 0xa6, 0x84, 0xbe,
  0x28, 0x2f, 0x08, 0x3f, 0xe0, 0x6f, 0x7c, 0xbc, 0x49, 0xff, 0x31, 0xbd,
  0x8e, 0x28, 0xbf, 0x3d, 0x29, 0x6e, 0x61, 0x3e, 0x33, 0xb7, 0x26, 0xbf,
  0xc4, 0xbd, 0xf7, 0x3d, 0xcc, 0x6d, 0x96, 0x3e, 0xc9, 0x7e, 0x61, 0xbe,
  0x2f, 0x9a, 0xa2, 0xbd, 0xfe, 0xa1, 0xd6, 0x3e, 0x83, 0x8c, 0x3f, 0xbe,
  0x9c, 0x4a, 0x8e, 0x3e, 0xe0, 0x62, 0xc5, 0x3e, 0x34, 0x3d, 0x20, 0x3e,
  0x79, 0xd3, 0x7a, 0x3e, 0x11, 0xa3, 0x88, 0x3e, 0xe7, 0x30, 0x02, 0xbf,
  0x2b, 0x5e, 0xbd, 0x3e, 0x29, 0xb7, 0xbc, 0x3d, 0xee, 0x01, 0xd2, 0x3c,
  0x9d, 0x18, 0x72, 0x3e, 0x91, 0xa5, 0xee, 0x3e, 0x10, 0x47, 0xdc, 0xbe,
  0x87, 0x6c, 0xe7, 0x3e, 0x74, 0xe8, 0x0e, 0xbc, 0xda, 0x0c, 0x46, 0x3e,
  0xc2, 0x2f, 0xe1, 0xbb, 0x3e, 0x9c, 0xc4, 0x3d, 0xec, 0x07, 0xae, 0x3e,
  0x72, 0x0c, 0xa5, 0x3e, 0x20, 0x25, 0x51, 0x3e, 0x91, 0x89, 0x6a, 0x3d,
  0xf3, 0xdb, 0xe8, 0x3e, 0xdb, 0x77, 0x89, 0xbc, 0x6f, 0x1d, 0x2c, 0xbd,
  0x82, 0x23, 0x3c, 0xbe, 0x0e, 0x6f, 0xb8, 0xbb, 0xc9, 0x6d, 0xb2, 0xbe,
  0x6a, 0x58, 0x16, 0x3e, 0xd6, 0xea, 0xdb, 0xbe, 0x3c, 0x6f, 0xa8, 0xbe,
  0x5a, 0xc5, 0x0f, 0xbe, 0x91, 0xc2, 0xc4, 0xbe, 0x11, 0x31, 0xb3, 0x3e,
  0xf3, 0x13, 0x4b, 0x3e, 0x7a, 0x07, 0x14, 0x3e, 0x9f, 0x0e, 0xd0, 0xbe,
  0xd8, 0x84, 0xb0, 0xbe, 0x6f, 0x24, 0x75, 0xbe, 0x31, 0xcb, 0x2e, 0xbe,
  0x10, 0xc5, 0xbb, 0x3e, 0xb3, 0x87, 0xc5, 0x3c, 0xd0, 0x30, 0x99, 0x3e,
  0x1f, 0x5c, 0x41, 0xbd, 0x29, 0xb4, 0x4c, 0x3c, 0x41, 0x0b, 0x97, 0x3e,
  0xfa, 0xa5, 0x0a, 0x3d, 0x67, 0x38, 0xac, 0x3e, 0x7b, 0x43, 0xfb, 0xbe,
  0x57, 0x2b, 0xae, 0x3d, 0x44, 0x4f, 0x5a, 0x3e, 0x27, 0xa2, 0x2b, 0xbe,
  0x61, 0x7a, 0x10, 0xbf, 0xee, 0xa2, 0x39, 0x3d, 0x8d, 0x97, 0x1f, 0x3e,
  0xe7, 0xe9, 0x87, 0x3e, 0x27, 0xff, 0xd3, 0xbe, 0xb0, 0x30, 0xa5, 0x3e,
  0x42, 0x6c, 0xb8, 0x3d, 0xb9, 0xec, 0x94, 0xbd, 0x20, 0xaf, 0x27, 0xbe,
  0x26, 0xaf, 0x15, 0xbe, 0x93, 0x0a, 0x17, 0x3e, 0x2f, 0xbc, 0x00, 0xbe,
  0x9b, 0x0a, 0xe8, 0xbe, 0x1a, 0x3d, 0x1e, 0x3d, 0x0a, 0x54, 0x29, 0x3e,
  0x77, 0x89, 0xdb, 0xbc, 0x7c, 0xdf, 0x92, 0xbe, 0xc8, 0x62, 0xe6, 0xbe,
  0xc8, 0xb6, 0xb5, 0x3e, 0xff, 0x8d, 0xa6, 0xbc, 0x9d, 0x1a, 0xa5, 0x3e,
  0x9b, 0xc8, 0x36, 0xbd, 0x00, 0x5e, 0x7c, 0x3e, 0xda, 0x26, 0x22, 0xbe,
  0x16, 0x74, 0xcb, 0x3e, 0xd3, 0x27, 0x7a, 0xbe, 0x4d, 0x81, 0xbe, 0x3e,
  0x90, 0xa1, 0xb3, 0x3e, 0xc5, 0xfe, 0xb7, 0x3d, 0x32, 0x63, 0xf6, 0xbd,
  0x22, 0x86, 0x78, 0x3e, 0x49, 0x40, 0xf0, 0xbc, 0x7b, 0x34, 0x5b, 0xbe,
  0x89, 0x0c, 0x8b, 0xbe, 0x6b, 0xfb, 0x9c, 0x3e, 0x83, 0xa8, 0xb8, 0x3b,
  0xde, 0x38, 0x85, 0x3d, 0x16, 0xbc, 0x12, 0x3f, 0x8d, 0xc5, 0xb1, 0xbd,
  0xb0, 0x33, 0x09, 0x3e, 0xb5, 0xfa, 0xde, 0x3e, 0xae, 0x1a, 0xb8, 0xbe,
  0xa3, 0x26, 0x05, 0x3e, 0x61, 0x31, 0x79, 0x3e, 0x9b, 0x71, 0xb0, 0x3d,
  0xe6, 0xc1, 0x46, 0xbe, 0xf0, 0x7e, 0x8e, 0x3b, 0x02, 0x80, 0xbc, 0x3d,
  0x3c, 0x1c, 0xd7, 0x3e, 0x28, 0xe1, 0xd7, 0x3e, 0xb1, 0x08, 0xb8, 0xbd,
  0x7c, 0x6f, 0x6d, 0x3d, 0xb9, 0x78, 0x39, 0xbe, 0x29, 0x8a, 0x2c, 0x3e,
  0x23, 0xb7, 0x09, 0xbf, 0xa0, 0xab, 0xe7, 0x3e, 0x65, 0xb0, 0xd6, 0xbe,
  0x10, 0x16, 0x8d, 0x3d, 0x26, 0x03, 0x0d, 0xbe, 0x67, 0x04, 0x1f, 0xbe,
  0x95, 0x0c, 0x04, 0x3f, 0x0b, 0x26, 0x76, 0xbe, 0x53, 0x19, 0xa4, 0x3d,
  0x1d, 0x9d, 0xa2, 0xbe, 0xd9, 0x8f, 0x04, 0xbf, 0x49, 0xc1, 0x90, 0xbe,
  0xa9, 0xe9, 0xd3, 0xbd, 0xc3, 0xd1, 0x41, 0xbe, 0xb3, 0x5c, 0xf5, 0x3d,
  0xf4, 0xb8, 0x12, 0x3f, 0x6d, 0x6a, 0x09, 0xbe, 0x5d, 0x7e, 0xe8, 0x3e,
  0xa6, 0x85, 0xe7, 0xbe, 0xc6, 0xa8, 0x31, 0xbe, 0x79, 0xe4, 0x09, 0x3d,
  0x06, 0xe8, 0x85, 0xbd, 0xbf, 0xee, 0x5e, 0xbe, 0x13, 0x06, 0x23, 0x3f,
  0x51, 0xc2, 0xe5, 0xbc, 0x1f, 0xd5, 0x94, 0x3d, 0xbd, 0xf2, 0xcf, 0x3d,
  0x11, 0x06, 0x98, 0x3e, 0xd1, 0xd5, 0xb0, 0xbe, 0xef, 0x1c, 0x06, 0x3e,
  0x95, 0x80, 0x70, 0xbd, 0x57, 0x1e, 0xa0, 0xbe, 0x92, 0x5a, 0x1d, 0x3b,
  0x07, 0x55, 0x07, 0x3d, 0x29, 0x73, 0xfa, 0x3e, 0xcd, 0xbc, 0xf6, 0x3e,
  0xce, 0xca, 0x61, 0xbd, 0x6c, 0x94, 0xa1, 0x3e, 0xff, 0xde, 0x9b, 0xbd,
  0x91, 0xab, 0x0a, 0x3e, 0x47, 0x17, 0x34, 0x3d, 0xcc, 0xe8, 0xb5, 0x3e,
  0xe3, 0xf4, 0x19, 0xbe, 0x13, 0xe5, 0xb7, 0x3d, 0x59, 0xa2, 0xd9, 0xbd,
  0x0a, 0xa6, 0x81, 0xbe, 0xc6, 0x98, 0xae, 0x3e, 0x18, 0x8d, 0x14, 0xbf,
  0x05, 0xfe, 0x9e, 0xbd, 0x02, 0x78, 0x0f, 0x3e, 0x83, 0x1a, 0x90, 0xbe,
  0x06, 0x61, 0x1c, 0xbe, 0x9c, 0xd7, 0xba, 0x3e, 0x20, 0xd4, 0x3e, 0xbe,
  0x11, 0x70, 0xd3, 0xbd, 0x6a, 0xed, 0x2e, 0x3e, 0x7b, 0xe9, 0xd8, 0x3c,
  0xb9, 0xe6, 0x44, 0x3d, 0x8d, 0xd5, 0xc7, 0xbe, 0x86, 0x1c, 0xd2, 0xbe,
  0xf9, 0x08, 0x02, 0x3f, 0x57, 0x22, 0x30, 0x3e, 0x9a, 0x30, 0xbb, 0x3e,
  0xbe, 0x72, 0x03, 0xbf, 0x9b, 0x5b, 0x56, 0x3d, 0xb1, 0xbd, 0xa5, 0xbe,
  0x36, 0xf9, 0xba, 0x3e, 0x10, 0x62, 0xdc, 0xbc, 0x7d, 0x33, 0x89, 0x3e,
  0x89, 0x1e, 0xab, 0xbe, 0x64, 0x1d, 0x05, 0xbe, 0x70, 0xde, 0xe9, 0xbc,
  0xa3, 0x09, 0x78, 0x3c, 0xe8, 0x01, 0x0c, 0x3f, 0xdf, 0xf8, 0xd4, 0xbe,
  0x82, 0x76, 0xb9, 0x3d, 0x32, 0x5d, 0xa3, 0x3e, 0x4e, 0xd9, 0x3d, 0xbd,
  0x0e, 0xa9, 0x24, 0x3e, 0xd6, 0xe3, 0xb5, 0xbe, 0x35, 0xd5, 0x97, 0xbb,
  0x01, 0xbb, 0x62, 0x3e, 0xb5, 0x52, 0xdc, 0x3e, 0xee, 0xa3, 0x02, 0xbf,
  0x0d, 0x77, 0xff, 0x3d, 0x68, 0xdc, 0x18, 0x3c, 0x93, 0xe7, 0x7f, 0x3d,
  0xef, 0x22, 0x8b, 0x3e, 0x38, 0xcf, 0xf2, 0x3d, 0xd1, 0x1c, 0x44, 0xbe,
  0x92, 0x9b, 0x08, 0xbf, 0xb8, 0x1b, 0x86, 0xbe, 0x3f, 0x01, 0x99, 0xbe,
  0x99, 0x8b, 0x93, 0xbe, 0xa8, 0x04, 0xa0, 0x3d, 0x3b, 0xb6, 0xd9, 0xba,
  0x73, 0xb4, 0x3c, 0x3e, 0x62, 0x4a, 0x6b, 0x3e, 0x20, 0x66, 0x93, 0x3e,
  0x8f, 0xff, 0x76, 0x3d, 0xaf, 0x51, 0x0d, 0x3d, 0xb6, 0xe8, 0xe9, 0xbd,
  0x37, 0x4c, 0x78, 0xbc, 0xbc, 0x00, 0x85, 0xbe, 0x1e, 0x0a, 0x71, 0xbe,
  0x69, 0xf2, 0x8c, 0xbb, 0xf6, 0xaf, 0xa3, 0x3e, 0xdf, 0xf7, 0x60, 0xbe,
  0xcc, 0xbc, 0xd0, 0x3d, 0xfe, 0x30, 0x6f, 0xbe, 0x93, 0x1c, 0xf9, 0xbe,
  0x36, 0xfe, 0xff, 0xff, 0x04, 0x00, 0x00, 0x00, 0xc8, 0x00, 0x00, 0x00,
  0x87, 0x39, 0xbe, 0x3e, 0x28, 0xcd, 0x96, 0x3e, 0xb7, 0xad, 0x34, 0xbe,
  0xed, 0xa9, 0x90, 0xbe, 0x45, 0x6f, 0x09, 0xbe, 0xcd, 0xf3, 0x1e, 0xbe,
  0xf6, 0xc1, 0xca, 0x3e, 0xd6, 0x69, 0x8d, 0xba, 0x7b, 0xf6, 0x90, 0x3d,
  0x1f, 0x9d, 0xac, 0xbd, 0x7f, 0xca, 0x4d, 0xbd, 0xf5, 0x4f, 0xac, 0x3d,
  0x03, 0xfd, 0xe8, 0xbd, 0xf3, 0x0a, 0x10, 0x3e, 0x94, 0x10, 0x66, 0x3e,
  0x92, 0x88, 0x9f, 0x3d, 0x8b, 0x6c, 0x27, 0xbe, 0xbe, 0x31, 0x80, 0x3e,
  0x54, 0xbd, 0x50, 0x3e, 0x83, 0xa7, 0x2b, 0x3d, 0x98, 0x81, 0x1f, 0x3e,
  0x16, 0xe3, 0x14, 0x3e, 0x0e, 0xa3, 0x99, 0xbd, 0x82, 0xc6, 0x1d, 0x3e,
  0x86, 0x73, 0xed, 0xbd, 0x77, 0x14, 0x8d, 0xbd, 0xad, 0x4c, 0x19, 0x3e,
  0xa7, 0x6a, 0x07, 0xbe, 0x1b, 0xdd, 0x07, 0xbe, 0x16, 0xf5, 0xaa, 0x3e,
  0x07, 0x1a, 0x99, 0x3e, 0x8e, 0x29, 0x2a, 0xbe, 0x67, 0xe5, 0xe7, 0x3c,
  0xaa, 0xbb, 0x5c, 0xbe, 0xbd, 0x2f, 0xfa, 0x3d, 0x21, 0x94, 0x30, 0xbe,
  0xce, 0x1e, 0x80, 0x3e, 0x02, 0xec, 0x0a, 0xbe, 0x2c, 0x76, 0x1f, 0x3f,
  0x77, 0xdb, 0xc4, 0x3e, 0x23, 0xd5, 0x32, 0xbe, 0xa2, 0xf9, 0x7a, 0x3e,
  0x70, 0xaf, 0x2b, 0xbe, 0x28, 0xe4, 0x8d, 0x3e, 0xd7, 0x7a, 0x49, 0xbe,
  0x52, 0xff, 0xf8, 0x3e, 0xf2, 0x64, 0xa0, 0x3e, 0x0e, 0x5c, 0x58, 0xbe,
  0xa3, 0x03, 0xbb, 0x3e, 0x96, 0x2b, 0x6c, 0x3e, 0x0a, 0xff, 0xff, 0xff,
  0x04, 0x00, 0x00, 0x00, 0x3c, 0x00, 0x00, 0x00, 0xbc, 0xc1, 0x98, 0x3e,
  0x51, 0x87, 0x4c, 0x3e, 0xc4, 0xef, 0xe2, 0x3e, 0x84, 0xb9, 0xa3, 0x3e,
  0x57, 0xbe, 0xa0, 0xbd, 0xd3, 0xbc, 0xd4, 0xbd, 0xbe, 0x35, 0xea, 0xbc,
  0x8a, 0x97, 0xa2, 0x3e, 0x10, 0x34, 0xb0, 0x3e, 0x86, 0xfb, 0xa3, 0x3d,
  0x47, 0xfd, 0xf2, 0x3c, 0x16, 0xc8, 0x2d, 0xbe, 0x17, 0x6b, 0x27, 0xbe,
  0x51, 0x5f, 0x87, 0xbd, 0x20, 0xd3, 0xe2, 0x3e, 0x52, 0xff, 0xff, 0xff,
  0x04, 0x00, 0x00, 0x00, 0x0c, 0x00, 0x00, 0x00, 0x1a, 0x96, 0x63, 0xbe,
  0x77, 0x25, 0xca, 0xbe, 0xb3, 0xfe, 0x9b, 0x3e, 0x40, 0xfa, 0xff, 0xff,
  0x44, 0xfa, 0xff, 0xff, 0x0f, 0x00, 0x00, 0x00, 0x4d, 0x4c, 0x49, 0x52,
  0x20, 0x43, 0x6f, 0x6e, 0x76, 0x65, 0x72, 0x74, 0x65, 0x64, 0x2e, 0x00,
  0x01, 0x00, 0x00, 0x00, 0x14, 0x00, 0x00, 0x00, 0x00, 0x00, 0x0e, 0x00,
  0x18, 0x00, 0x14, 0x00, 0x10, 0x00, 0x0c, 0x00, 0x08, 0x00, 0x04, 0x00,
  0x0e, 0x00, 0x00, 0x00, 0x14, 0x00, 0x00, 0x00, 0x1c, 0x00, 0x00, 0x00,
  0x24, 0x01, 0x00, 0x00, 0x28, 0x01, 0x00, 0x00, 0x2c, 0x01, 0x00, 0x00,
  0x04, 0x00, 0x00, 0x00, 0x6d, 0x61, 0x69, 0x6e, 0x00, 0x00, 0x00, 0x00,
  0x04, 0x00, 0x00, 0x00, 0xcc, 0x00, 0x00, 0x00, 0x84, 0x00, 0x00, 0x00,
  0x50, 0x00, 0x00, 0x00, 0x14, 0x00, 0x00, 0x00, 0x00, 0x00, 0x0e, 0x00,
  0x1a, 0x00, 0x14, 0x00, 0x10, 0x00, 0x0c, 0x00, 0x0b, 0x00, 0x04, 0x00,
  0x0e, 0x00, 0x00, 0x00, 0x1c, 0x00, 0x00, 0x00, 0x00, 0x00, 0x00, 0x09,
  0x1c, 0x00, 0x00, 0x00, 0x20, 0x00, 0x00, 0x00, 0x01, 0x00, 0x00, 0x00,
  0x00, 0x00, 0x06, 0x00, 0x08, 0x00, 0x04, 0x00, 0x06, 0x00, 0x00, 0x00,
  0x00, 0x00, 0x80, 0x3f, 0x01, 0x00, 0x00, 0x00, 0x0a, 0x00, 0x00, 0x00,
  0x01, 0x00, 0x00, 0x00, 0x09, 0x00, 0x00, 0x00, 0x9a, 0xff, 0xff, 0xff,
  0x10, 0x00, 0x00, 0x00, 0x00, 0x00, 0x00, 0x08, 0x0c, 0x00, 0x00, 0x00,
  0x10, 0x00, 0x00, 0x00, 0x08, 0xfb, 0xff, 0xff, 0x01, 0x00, 0x00, 0x00,
  0x09, 0x00, 0x00, 0x00, 0x03, 0x00, 0x00, 0x00, 0x08, 0x00, 0x00, 0x00,
  0x06, 0x00, 0x00, 0x00, 0x01, 0x00, 0x00, 0x00, 0xca, 0xff, 0xff, 0xff,
  0x10, 0x00, 0x00, 0x00, 0x00, 0x00, 0x00, 0x08, 0x10, 0x00, 0x00, 0x00,
  0x14, 0x00, 0x00, 0x00, 0xba, 0xff, 0xff, 0xff, 0x00, 0x00, 0x00, 0x01,
  0x01, 0x00, 0x00, 0x00, 0x08, 0x00, 0x00, 0x00, 0x03, 0x00, 0x00, 0x00,
  0x07, 0x00, 0x00, 0x00, 0x05, 0x00, 0x00, 0x00, 0x02, 0x00, 0x00, 0x00,
  0x00, 0x00, 0x0e, 0x00, 0x16, 0x00, 0x00, 0x00, 0x10, 0x00, 0x0c, 0x00,
  0x0b, 0x00, 0x04, 0x00, 0x0e, 0x00, 0x00, 0x00, 0x18, 0x00, 0x00, 0x00,
  0x00, 0x00, 0x00, 0x08, 0x18, 0x00, 0x00, 0x00, 0x1c, 0x00, 0x00, 0x00,
  0x00, 0x00, 0x06, 0x00, 0x08, 0x00, 0x07, 0x00, 0x06, 0x00, 0x00, 0x00,
  0x00, 0x00, 0x00, 0x01, 0x01, 0x00, 0x00, 0x00, 0x07, 0x00, 0x00, 0x00,
  0x03, 0x00, 0x00, 0x00, 0x00, 0x00, 0x00, 0x00, 0x04, 0x00, 0x00, 0x00,
  0x03, 0x00, 0x00, 0x00, 0x01, 0x00, 0x00, 0x00, 0x0a, 0x00, 0x00, 0x00,
  0x01, 0x00, 0x00, 0x00, 0x00, 0x00, 0x00, 0x00, 0x0b, 0x00, 0x00, 0x00,
  0x20, 0x04, 0x00, 0x00, 0xb0, 0x03, 0x00, 0x00, 0x40, 0x03, 0x00, 0x00,
  0xe8, 0x02, 0x00, 0x00, 0x9c, 0x02, 0x00, 0x00, 0x50, 0x02, 0x00, 0x00,
  0x04, 0x02, 0x00, 0x00, 0x70, 0x01, 0x00, 0x00, 0xdc, 0x00, 0x00, 0x00,
  0x60, 0x00, 0x00, 0x00, 0x04, 0x00, 0x00, 0x00, 0x22, 0xfc, 0xff, 0xff,
  0x00, 0x00, 0x00, 0x01, 0x14, 0x00, 0x00, 0x00, 0x1c, 0x00, 0x00, 0x00,
  0x1c, 0x00, 0x00, 0x00, 0x0b, 0x00, 0x00, 0x00, 0x34, 0x00, 0x00, 0x00,
  0x02, 0x00, 0x00, 0x00, 0xff, 0xff, 0xff, 0xff, 0x03, 0x00, 0x00, 0x00,
  0x0c, 0xfc, 0xff, 0xff, 0x19, 0x00, 0x00, 0x00, 0x53, 0x74, 0x61, 0x74,
  0x65, 0x66, 0x75, 0x6c, 0x50, 0x61, 0x72, 0x74, 0x69, 0x74, 0x69, 0x6f,
  0x6e, 0x65, 0x64, 0x43, 0x61, 0x6c, 0x6c, 0x3a, 0x30, 0x00, 0x00, 0x00,
  0x02, 0x00, 0x00, 0x00, 0x01, 0x00, 0x00, 0x00, 0x03, 0x00, 0x00, 0x00,
  0x7a, 0xfc, 0xff, 0xff, 0x00, 0x00, 0x00, 0x01, 0x14, 0x00, 0x00, 0x00,
  0x1c, 0x00, 0x00, 0x00, 0x1c, 0x00, 0x00, 0x00, 0x0a, 0x00, 0x00, 0x00,
  0x54, 0x00, 0x00, 0x00, 0x02, 0x00, 0x00, 0x00, 0xff, 0xff, 0xff, 0xff,
  0x03, 0x00, 0x00, 0x00, 0x64, 0xfc, 0xff, 0xff, 0x38, 0x00, 0x00, 0x00,
  0x73, 0x65, 0x71, 0x75, 0x65, 0x6e, 0x74, 0x69, 0x61, 0x6c, 0x5f, 0x31,
  0x2f, 0x64, 0x65, 0x6e, 0x73, 0x65, 0x5f, 0x34, 0x2f, 0x4d, 0x61, 0x74,
  0x4d, 0x75, 0x6c, 0x3b, 0x73, 0x65, 0x71, 0x75, 0x65, 0x6e, 0x74, 0x69,
  0x61, 0x6c, 0x5f, 0x31, 0x2f, 0x64, 0x65, 0x6e, 0x73, 0x65, 0x5f, 0x34,
  0x2f, 0x42, 0x69, 0x61, 0x73, 0x41, 0x64, 0x64, 0x00, 0x00, 0x00, 0x00,
  0x02, 0x00, 0x00, 0x00, 0x01, 0x00, 0x00, 0x00, 0x03, 0x00, 0x00, 0x00,
  0xf2, 0xfc, 0xff, 0xff, 0x00, 0x00, 0x00, 0x01, 0x14, 0x00, 0x00, 0x00,
  0x1c, 0x00, 0x00, 0x00, 0x1c, 0x00, 0x00, 0x00, 0x09, 0x00, 0x00, 0x00,
  0x6c, 0x00, 0x00, 0x00, 0x02, 0x00, 0x00, 0x00, 0xff, 0xff, 0xff, 0xff,
  0x0f, 0x00, 0x00, 0x00, 0xdc, 0xfc, 0xff, 0xff, 0x52, 0x00, 0x00, 0x00,
  0x73, 0x65, 0x71, 0x75, 0x65, 0x6e, 0x74, 0x69, 0x61, 0x6c, 0x5f, 0x31,
  0x2f, 0x64, 0x65, 0x6e, 0x73, 0x65, 0x5f, 0x33, 0x2f, 0x4d, 0x61, 0x74,
  0x4d, 0x75, 0x6c, 0x3b, 0x73, 0x65, 0x71, 0x75, 0x65, 0x6e, 0x74, 0x69,
  0x61, 0x6c, 0x5f, 0x31, 0x2f, 0x64, 0x65, 0x6e, 0x73, 0x65, 0x5f, 0x33,
  0x2f, 0x52, 0x65, 0x6c, 0x75, 0x3b, 0x73, 0x65, 0x71, 0x75, 0x65, 0x6e,
  0x74, 0x69, 0x61, 0x6c, 0x5f, 0x31, 0x2f, 0x64, 0x65, 0x6e, 0x73, 0x65,
  0x5f, 0x33, 0x2f, 0x42, 0x69, 0x61, 0x73, 0x41, 0x64, 0x64, 0x00, 0x00,
  0x02, 0x00, 0x00, 0x00, 0x01, 0x00, 0x00, 0x00, 0x0f, 0x00, 0x00, 0x00,
  0x82, 0xfd, 0xff, 0xff, 0x00, 0x00, 0x00, 0x01, 0x14, 0x00, 0x00, 0x00,
  0x1c, 0x00, 0x00, 0x00, 0x1c, 0x00, 0x00, 0x00, 0x08, 0x00, 0x00, 0x00,
  0x6c, 0x00, 0x00, 0x00, 0x02, 0x00, 0x00, 0x00, 0xff, 0xff, 0xff, 0xff,
  0x32, 0x00, 0x00, 0x00, 0x6c, 0xfd, 0xff, 0xff, 0x52, 0x00, 0x00, 0x00,
  0x73, 0x65, 0x71, 0x75, 0x65, 0x6e, 0x74, 0x69, 0x61, 0x6c, 0x5f, 0x31,
  0x2f, 0x64, 0x65, 0x6e, 0x73, 0x65, 0x5f, 0x32, 0x2f, 0x4d, 0x61, 0x74,
  0x4d, 0x75, 0x6c, 0x3b, 0x73, 0x65, 0x71, 0x75, 0x65, 0x6e, 0x74, 0x69,
  0x61, 0x6c, 0x5f, 0x31, 0x2f, 0x64, 0x65, 0x6e, 0x73, 0x65, 0x5f, 0x32,
  0x2f, 0x52, 0x65, 0x6c, 0x75, 0x3b, 0x73, 0x65, 0x71, 0x75, 0x65, 0x6e,
  0x74, 0x69, 0x61, 0x6c, 0x5f, 0x31, 0x2f, 0x64, 0x65, 0x6e, 0x73, 0x65,
  0x5f, 0x32, 0x2f, 0x42, 0x69, 0x61, 0x73, 0x41, 0x64, 0x64, 0x00, 0x00,
  0x02, 0x00, 0x00, 0x00, 0x01, 0x00, 0x00, 0x00, 0x32, 0x00, 0x00, 0x00,
  0x7e, 0xfe, 0xff, 0xff, 0x00, 0x00, 0x00, 0x01, 0x10, 0x00, 0x00, 0x00,
  0x10, 0x00, 0x00, 0x00, 0x07, 0x00, 0x00, 0x00, 0x28, 0x00, 0x00, 0x00,
  0xec, 0xfd, 0xff, 0xff, 0x1b, 0x00, 0x00, 0x00, 0x73, 0x65, 0x71, 0x75,
  0x65, 0x6e, 0x74, 0x69, 0x61, 0x6c, 0x5f, 0x31, 0x2f, 0x64, 0x65, 0x6e,
  0x73, 0x65, 0x5f, 0x34, 0x2f, 0x4d, 0x61, 0x74, 0x4d, 0x75, 0x6c, 0x00,
  0x02, 0x00, 0x00, 0x00, 0x03, 0x00, 0x00, 0x00, 0x0f, 0x00, 0x00, 0x00,
  0xc6, 0xfe, 0xff, 0xff, 0x00, 0x00, 0x00, 0x01, 0x10, 0x00, 0x00, 0x00,
  0x10, 0x00, 0x00, 0x00, 0x06, 0x00, 0x00, 0x00, 0x28, 0x00, 0x00, 0x00,
  0x34, 0xfe, 0xff, 0xff, 0x1b, 0x00, 0x00, 0x00, 0x73, 0x65, 0x71, 0x75,
  0x65, 0x6e, 0x74, 0x69, 0x61, 0x6c, 0x5f, 0x31, 0x2f, 0x64, 0x65, 0x6e,
  0x73, 0x65, 0x5f, 0x33, 0x2f, 0x4d, 0x61, 0x74, 0x4d, 0x75, 0x6c, 0x00,
  0x02, 0x00, 0x00, 0x00, 0x0f, 0x00, 0x00, 0x00, 0x32, 0x00, 0x00, 0x00,
  0x0e, 0xff, 0xff, 0xff, 0x00, 0x00, 0x00, 0x01, 0x10, 0x00, 0x00, 0x00,
  0x10, 0x00, 0x00, 0x00, 0x05, 0x00, 0x00, 0x00, 0x28, 0x00, 0x00, 0x00,
  0x7c, 0xfe, 0xff, 0xff, 0x1b, 0x00, 0x00, 0x00, 0x73, 0x65, 0x71, 0x75,
  0x65, 0x6e, 0x74, 0x69, 0x61, 0x6c, 0x5f, 0x31, 0x2f, 0x64, 0x65, 0x6e,
  0x73, 0x65, 0x5f, 0x32, 0x2f, 0x4d, 0x61, 0x74, 0x4d, 0x75, 0x6c, 0x00,
  0x02, 0x00, 0x00, 0x00, 0x32, 0x00, 0x00, 0x00, 0x05, 0x00, 0x00, 0x00,
  0x56, 0xff, 0xff, 0xff, 0x00, 0x00, 0x00, 0x01, 0x10, 0x00, 0x00, 0x00,
  0x10, 0x00, 0x00, 0x00, 0x04, 0x00, 0x00, 0x00, 0x38, 0x00, 0x00, 0x00,
  0xc4, 0xfe, 0xff, 0xff, 0x2b, 0x00, 0x00, 0x00, 0x73, 0x65, 0x71, 0x75,
  0x65, 0x6e, 0x74, 0x69, 0x61, 0x6c, 0x5f, 0x31, 0x2f, 0x64, 0x65, 0x6e,
  0x73, 0x65, 0x5f, 0x32, 0x2f, 0x42, 0x69, 0x61, 0x73, 0x41, 0x64, 0x64,
  0x2f, 0x52, 0x65, 0x61, 0x64, 0x56, 0x61, 0x72, 0x69, 0x61, 0x62, 0x6c,
  0x65, 0x4f, 0x70, 0x00, 0x01, 0x00, 0x00, 0x00, 0x32, 0x00, 0x00, 0x00,
  0xaa, 0xff, 0xff, 0xff, 0x00, 0x00, 0x00, 0x01, 0x10, 0x00, 0x00, 0x00,
  0x10, 0x00, 0x00, 0x00, 0x03, 0x00, 0x00, 0x00, 0x38, 0x00, 0x00, 0x00,
  0x18, 0xff, 0xff, 0xff, 0x2b, 0x00, 0x00, 0x00, 0x73, 0x65, 0x71, 0x75,
  0x65, 0x6e, 0x74, 0x69, 0x61, 0x6c, 0x5f, 0x31, 0x2f, 0x64, 0x65, 0x6e,
  0x73, 0x65, 0x5f, 0x33, 0x2f, 0x42, 0x69, 0x61, 0x73, 0x41, 0x64, 0x64,
  0x2f, 0x52, 0x65, 0x61, 0x64, 0x56, 0x61, 0x72, 0x69, 0x61, 0x62, 0x6c,
  0x65, 0x4f, 0x70, 0x00, 0x01, 0x00, 0x00, 0x00, 0x0f, 0x00, 0x00, 0x00,
  0x00, 0x00, 0x16, 0x00, 0x18, 0x00, 0x14, 0x00, 0x00, 0x00, 0x10, 0x00,
  0x0c, 0x00, 0x08, 0x00, 0x00, 0x00, 0x00, 0x00, 0x00, 0x00, 0x07, 0x00,
  0x16, 0x00, 0x00, 0x00, 0x00, 0x00, 0x00, 0x01, 0x10, 0x00, 0x00, 0x00,
  0x10, 0x00, 0x00, 0x00, 0x02, 0x00, 0x00, 0x00, 0x38, 0x00, 0x00, 0x00,
  0x84, 0xff, 0xff, 0xff, 0x2b, 0x00, 0x00, 0x00, 0x73, 0x65, 0x71, 0x75,
  0x65, 0x6e, 0x74, 0x69, 0x61, 0x6c, 0x5f, 0x31, 0x2f, 0x64, 0x65, 0x6e,
  0x73, 0x65, 0x5f, 0x34, 0x2f, 0x42, 0x69, 0x61, 0x73, 0x41, 0x64, 0x64,
  0x2f, 0x52, 0x65, 0x61, 0x64, 0x56, 0x61, 0x72, 0x69, 0x61, 0x62, 0x6c,
  0x65, 0x4f, 0x70, 0x00, 0x01, 0x00, 0x00, 0x00, 0x03, 0x00, 0x00, 0x00,
  0x00, 0x00, 0x16, 0x00, 0x1c, 0x00, 0x18, 0x00, 0x00, 0x00, 0x14, 0x00,
  0x10, 0x00, 0x0c, 0x00, 0x00, 0x00, 0x00, 0x00, 0x08, 0x00, 0x07, 0x00,
  0x16, 0x00, 0x00, 0x00, 0x00, 0x00, 0x00, 0x01, 0x14, 0x00, 0x00, 0x00,
  0x20, 0x00, 0x00, 0x00, 0x20, 0x00, 0x00, 0x00, 0x01, 0x00, 0x00, 0x00,
  0x3c, 0x00, 0x00, 0x00, 0x02, 0x00, 0x00, 0x00, 0xff, 0xff, 0xff, 0xff,
  0x05, 0x00, 0x00, 0x00, 0x04, 0x00, 0x04, 0x00, 0x04, 0x00, 0x00, 0x00,
  0x1f, 0x00, 0x00, 0x00, 0x73, 0x65, 0x72, 0x76, 0x69, 0x6e, 0x67, 0x5f,
  0x64, 0x65, 0x66, 0x61, 0x75, 0x6c, 0x74, 0x5f, 0x64, 0x65, 0x6e, 0x73,
  0x65, 0x5f, 0x32, 0x5f, 0x69, 0x6e, 0x70, 0x75, 0x74, 0x3a, 0x30, 0x00,
  0x02, 0x00, 0x00, 0x00, 0x01, 0x00, 0x00, 0x00, 0x05, 0x00, 0x00, 0x00,
  0x02, 0x00, 0x00, 0x00, 0x20, 0x00, 0x00, 0x00, 0x04, 0x00, 0x00, 0x00,
  0xf4, 0xff, 0xff, 0xff, 0x19, 0x00, 0x00, 0x00, 0x00, 0x00, 0x00, 0x19,
  0x0c, 0x00, 0x0c, 0x00, 0x0b, 0x00, 0x00, 0x00, 0x00, 0x00, 0x04, 0x00,
  0x0c, 0x00, 0x00, 0x00, 0x09, 0x00, 0x00, 0x00, 0x00, 0x00, 0x00, 0x09
};

const int model_len = sizeof(model);
